8B
CB
BD
93
C3
97
C8
CC
C4
C6
A5
94
B1
AB
D0
BE
AA
92
DA
CA
CE
C4
B2
DA
A5
DD
DC
8F
93
A1
CD
D5
E0
98
B6
DA
8F
D3
C9
C8
AE
AA
AB
98
A1
9C
D8
A3
C7
89
AC
D0
DD
A5
DE
E0
9A
CE
BD
A5
8A
8E
D4
D1
BA
99
B5
DB
C7
8E
AB
89
91
99
D1
AC
9C
8E
AB
93
BB
8A
A8
89

