350
330
312
327
353
335
350
350
346
2FF
30A
330
349
30A
318
350
336
329
311
301
344
2FF
34C
302
31E
34A
333
304
323
33E
322
334
344
32C
338
352
34C
333
30B
341
301
346
34F
337
33F
304
34E
333
30F
31C
30E
31D
330
32B
34E
338
2FF
311
303
30E
313
307
337
346
352
306
303
330
32E
341
34A
335
340
345
30B
305
348
313
346
312
303
31F
354
305
303
302
311
34F
314
32E
357
32D
32F
31F
329
31A
324
31F
33E
345
32A
320
31F
346
33B
308
352
34F
315
337
302
327
336
341
33A
323
332
33C
312
30C

