2D8
2B8
29A
2AF
2DB
2BD
2D8
2D8
2CE
287
292
2B8
2D1
292
2A0
2D8
2BE
2B1
299
289
2CC
287
2D4
28A
2A6
2D2
2BB
28C
2AB
2C6
2AA
2BC
2CC
2B4
2C0
2DA
2D4
2BB
293
2C9
289
2CE
2D7
2BF
2C7
28C
2D6
2BB
297
2A4
296
2A5
2B8
2B3
2D6
2C0
287
299
28B
296
29B
28F
2BF
2CE
2DA
28E
28B
2B8
2B6
2C9
2D2
2BD
2C8
2CD
293
28D
2D0
29B
2CE
29A
28B
2A7
2DC
28D
28B
28A
299
2D7
29C
2B6
2DF
2B5
2B7
2A7
2B1
2A2
2AC
2A7
2C6
2CD
2B2
2A8
2A7
2CE
2C3
290
2DA
2D7
29D
2BF
28A
2AF
2BE
2C9
2C2
2AB
2BA
2C4
29A
294

