80
60
42
57
83
65
80
80
76
2F
3A
60
79
3A
48
80
66
59
41
31
74
2F
7C
32
4E
7A
63
34
53
6E
52
64
74
5C
68
82
7C
63
3B
71
31
76
7F
67
6F
34
7E
63
3F
4C
3E
4D
60
5B
7E
68
2F
41
33
3E
43
37
67
76
82
36
33
60
5E
71
7A
65
70
75
3B
35
78
43
76
42
33
4F
84
35
33
32
41
7F
44
5E
87
5D
5F
4F
59
4A
54
4F
6E
75
5A
50
4F
76
6B
38
82
7F
45
67
32
57
66
71
6A
53
62
6C
42
3C

