1B3
1F3
1E5
1BB
1EB
1BF
1F0
1F4
1EC
1EE
1CD
1BC
1D9
1D3
1F8
1E6
1D2
1BA
202
1F2
1F6
1EC
1DA
202
1CD
205
204
1B7
1BB
1C9
1F5
1FD
208
1C0
1DE
202
1B7
1FB
1F1
1F0
1D6
1D2
1D3
1C0
1C9
1C4
200
1CB
1EF
1B1
1D4
1F8
205
1CD
206
208
1C2
1F6
1E5
1CD
1B2
1B6
1FC
1F9
1E2
1C1
1DD
203
1EF
1B6
1D3
1B1
1B9
1C1
1F9
1D4
1C4
1B6
1D3
1BB
1E3
1B2
1D0
1B1

