170
150
132
147
173
155
170
170
166
11F
12A
150
169
12A
138
170
156
149
131
121
164
11F
16C
122
13E
16A
153
124
143
15E
142
154
164
14C
158
172
16C
153
12B
161
121
166
16F
157
15F
124
16E
153
12F
13C
12E
13D
150
14B
16E
158
11F
131
123
12E
133
127
157
166
172
126
123
150
14E
161
16A
155
160
165
12B
125
168
133
166
132
123
13F
174
125
123
122
131
16F
134
14E
177
14D
14F
13F
149
13A
144
13F
15E
165
14A
140
13F
166
15B
128
172
16F
135
157
122
147
156
161
15A
143
152
15C
132
12C

