0AC
0EC
0DE
0B4
0E4
0B8
0E9
0ED
0E5
0E7
0C6
0B5
0D2
0CC
0F1
0DF
0CB
0B3
0FB
0EB
0EF
0E5
0D3
0FB
0C6
0FE
0FD
0B0
0B4
0C2
0EE
0F6
101
0B9
0D7
0FB
0B0
0F4
0EA
0E9
0CF
0CB
0CC
0B9
0C2
0BD
0F9
0C4
0E8
0AA
0CD
0F1
0FE
0C6
0FF
101
0BB
0EF
0DE
0C6
0AB
0AF
0F5
0F2
0DB
0BA
0D6
0FC
0E8
0AF
0CC
0AA
0B2
0BA
0F2
0CD
0BD
0AF
0CC
0B4
0DC
0AB
0C9
0AA

