29
69
5B
31
61
35
66
6A
62
64
43
32
4F
49
6E
5C
48
30
78
68
6C
62
50
78
43
7B
7A
2D
31
3F
6B
73
7E
36
54
78
2D
71
67
66
4C
48
49
36
3F
3A
76
41
65
27
4A
6E
7B
43
7C
7E
38
6C
5B
43
28
2C
72
6F
58
37
53
79
65
2C
49
27
2F
37
6F
4A
3A
2C
49
31
59
28
46
27

