6A
AA
9C
72
A2
76
A7
AB
A3
A5
84
73
90
8A
AF
9D
89
71
B9
A9
AD
A3
91
B9
84
BC
BB
6E
72
80
AC
B4
BF
77
95
B9
6E
B2
A8
A7
8D
89
8A
77
80
7B
B7
82
A6
68
8B
AF
BC
84
BD
BF
79
AD
9C
84
69
6D
B3
B0
99
78
94
BA
A6
6D
8A
68
70
78
B0
8B
7B
6D
8A
72
9A
69
87
68

