1AC
18C
16E
183
1AF
191
1AC
1AC
1A2
15B
166
18C
1A5
166
174
1AC
192
185
16D
15D
1A0
15B
1A8
15E
17A
1A6
18F
160
17F
19A
17E
190
1A0
188
194
1AE
1A8
18F
167
19D
15D
1A2
1AB
193
19B
160
1AA
18F
16B
178
16A
179
18C
187
1AA
194
15B
16D
15F
16A
16F
163
193
1A2
1AE
162
15F
18C
18A
19D
1A6
191
19C
1A1
167
161
1A4
16F
1A2
16E
15F
17B
1B0
161
15F
15E
16D
1AB
170
18A
1B3
189
18B
17B
185
176
180
17B
19A
1A1
186
17C
17B
1A2
197
164
1AE
1AB
171
193
15E
183
192
19D
196
17F
18E
198
16E
168

