171
1B1
1A3
179
1A9
17D
1AE
1B2
1AA
1AC
18B
17A
197
191
1B6
1A4
190
178
1C0
1B0
1B4
1AA
198
1C0
18B
1C3
1C2
175
179
187
1B3
1BB
1C6
17E
19C
1C0
175
1B9
1AF
1AE
194
190
191
17E
187
182
1BE
189
1AD
16F
192
1B6
1C3
18B
1C4
1C6
180
1B4
1A3
18B
170
174
1BA
1B7
1A0
17F
19B
1C1
1AD
174
191
16F
177
17F
1B7
192
182
174
191
179
1A1
170
18E
16F

