4A
8A
7C
52
82
56
87
8B
83
85
64
53
70
6A
8F
7D
69
51
99
89
8D
83
71
99
64
9C
9B
4E
52
60
8C
94
9F
57
75
99
4E
92
88
87
6D
69
6A
57
60
5B
97
62
86
48
6B
8F
9C
64
9D
9F
59
8D
7C
64
49
4D
93
90
79
58
74
9A
86
4D
6A
48
50
58
90
6B
5B
4D
6A
52
7A
49
67
48

