0EE
12E
120
0F6
126
0FA
12B
12F
127
129
108
0F7
114
10E
133
121
10D
0F5
13D
12D
131
127
115
13D
108
140
13F
0F2
0F6
104
130
138
143
0FB
119
13D
0F2
136
12C
12B
111
10D
10E
0FB
104
0FF
13B
106
12A
0EC
10F
133
140
108
141
143
0FD
131
120
108
0ED
0F1
137
134
11D
0FC
118
13E
12A
0F1
10E
0EC
0F4
0FC
134
10F
0FF
0F1
10E
0F6
11E
0ED
10B
0EC

