134
114
0F6
10B
137
119
134
134
12A
0E3
0EE
114
12D
0EE
0FC
134
11A
10D
0F5
0E5
128
0E3
130
0E6
102
12E
117
0E8
107
122
106
118
128
110
11C
136
130
117
0EF
125
0E5
12A
133
11B
123
0E8
132
117
0F3
100
0F2
101
114
10F
132
11C
0E3
0F5
0E7
0F2
0F7
0EB
11B
12A
136
0EA
0E7
114
112
125
12E
119
124
129
0EF
0E9
12C
0F7
12A
0F6
0E7
103
138
0E9
0E7
0E6
0F5
133
0F8
112
13B
111
113
103
10D
0FE
108
103
122
129
10E
104
103
12A
11F
0EC
136
133
0F9
11B
0E6
10B
11A
125
11E
107
116
120
0F6
0F0

