F8
D8
BA
CF
FB
DD
F8
F8
EE
A7
B2
D8
F1
B2
C0
F8
DE
D1
B9
A9
EC
A7
F4
AA
C6
F2
DB
AC
CB
E6
CA
DC
EC
D4
E0
FA
F4
DB
B3
E9
A9
EE
F7
DF
E7
AC
F6
DB
B7
C4
B6
C5
D8
D3
F6
E0
A7
B9
AB
B6
BB
AF
DF
EE
FA
AE
AB
D8
D6
E9
F2
DD
E8
ED
B3
AD
F0
BB
EE
BA
AB
C7
FC
AD
AB
AA
B9
F7
BC
D6
FF
D5
D7
C7
D1
C2
CC
C7
E6
ED
D2
C8
C7
EE
E3
B0
FA
F7
BD
DF
AA
CF
DE
E9
E2
CB
DA
E4
BA
B4

