BC
9C
7E
93
BF
A1
BC
BC
B2
6B
76
9C
B5
76
84
BC
A2
95
7D
6D
B0
6B
B8
6E
8A
B6
9F
70
8F
AA
8E
A0
B0
98
A4
BE
B8
9F
77
AD
6D
B2
BB
A3
AB
70
BA
9F
7B
88
7A
89
9C
97
BA
A4
6B
7D
6F
7A
7F
73
A3
B2
BE
72
6F
9C
9A
AD
B6
A1
AC
B1
77
71
B4
7F
B2
7E
6F
8B
C0
71
6F
6E
7D
BB
80
9A
C3
99
9B
8B
95
86
90
8B
AA
B1
96
8C
8B
B2
A7
74
BE
BB
81
A3
6E
93
A2
AD
A6
8F
9E
A8
7E
78

