29C
27C
25E
273
29F
281
29C
29C
292
24B
256
27C
295
256
264
29C
282
275
25D
24D
290
24B
298
24E
26A
296
27F
250
26F
28A
26E
280
290
278
284
29E
298
27F
257
28D
24D
292
29B
283
28B
250
29A
27F
25B
268
25A
269
27C
277
29A
284
24B
25D
24F
25A
25F
253
283
292
29E
252
24F
27C
27A
28D
296
281
28C
291
257
251
294
25F
292
25E
24F
26B
2A0
251
24F
24E
25D
29B
260
27A
2A3
279
27B
26B
275
266
270
26B
28A
291
276
26C
26B
292
287
254
29E
29B
261
283
24E
273
282
28D
286
26F
27E
288
25E
258

