67
27
19
6F
1F
73
24
28
20
22
01
70
0D
07
2C
1A
06
6E
36
26
2A
20
0E
36
01
39
38
6B
6F
7D
29
31
3C
74
12
36
6B
2F
25
24
0A
06
07
74
7D
78
34
7F
23
65
08
2C
39
01
3A
3C
76
2A
19
01
66
6A
30
2D
16
75
11
37
23
6A
07
65
6D
75
2D
08
78
6A
07
6F
17
66
04
65

