08
48
3A
10
40
14
45
49
41
43
22
11
2E
28
4D
3B
27
0F
57
47
4B
41
2F
57
22
5A
59
0C
10
1E
4A
52
5D
15
33
57
0C
50
46
45
2B
27
28
15
1E
19
55
20
44
06
29
4D
5A
22
5B
5D
17
4B
3A
22
07
0B
51
4E
37
16
32
58
44
0B
28
06
0E
16
4E
29
19
0B
28
10
38
07
25
06

