224
204
1E6
1FB
227
209
224
224
21A
1D3
1DE
204
21D
1DE
1EC
224
20A
1FD
1E5
1D5
218
1D3
220
1D6
1F2
21E
207
1D8
1F7
212
1F6
208
218
200
20C
226
220
207
1DF
215
1D5
21A
223
20B
213
1D8
222
207
1E3
1F0
1E2
1F1
204
1FF
222
20C
1D3
1E5
1D7
1E2
1E7
1DB
20B
21A
226
1DA
1D7
204
202
215
21E
209
214
219
1DF
1D9
21C
1E7
21A
1E6
1D7
1F3
228
1D9
1D7
1D6
1E5
223
1E8
202
22B
201
203
1F3
1FD
1EE
1F8
1F3
212
219
1FE
1F4
1F3
21A
20F
1DC
226
223
1E9
20B
1D6
1FB
20A
215
20E
1F7
206
210
1E6
1E0

