260
240
222
237
263
245
260
260
256
20F
21A
240
259
21A
228
260
246
239
221
211
254
20F
25C
212
22E
25A
243
214
233
24E
232
244
254
23C
248
262
25C
243
21B
251
211
256
25F
247
24F
214
25E
243
21F
22C
21E
22D
240
23B
25E
248
20F
221
213
21E
223
217
247
256
262
216
213
240
23E
251
25A
245
250
255
21B
215
258
223
256
222
213
22F
264
215
213
212
221
25F
224
23E
267
23D
23F
22F
239
22A
234
22F
24E
255
23A
230
22F
256
24B
218
262
25F
225
247
212
237
246
251
24A
233
242
24C
222
21C

