E8
C8
AA
BF
EB
CD
E8
E8
DE
97
A2
C8
E1
A2
B0
E8
CE
C1
A9
99
DC
97
E4
9A
B6
E2
CB
9C
BB
D6
BA
CC
DC
C4
D0
EA
E4
CB
A3
D9
99
DE
E7
CF
D7
9C
E6
CB
A7
B4
A6
B5
C8
C3
E6
D0
97
A9
9B
A6
AB
9F
CF
DE
EA
9E
9B
C8
C6
D9
E2
CD
D8
DD
A3
9D
E0
AB
DE
AA
9B
B7
EC
9D
9B
9A
A9
E7
AC
C6
EF
C5
C7
B7
C1
B2
BC
B7
D6
DD
C2
B8
B7
DE
D3
A0
EA
E7
AD
CF
9A
BF
CE
D9
D2
BB
CA
D4
AA
A4

