18C
16C
14E
163
18F
171
18C
18C
182
13B
146
16C
185
146
154
18C
172
165
14D
13D
180
13B
188
13E
15A
186
16F
140
15F
17A
15E
170
180
168
174
18E
188
16F
147
17D
13D
182
18B
173
17B
140
18A
16F
14B
158
14A
159
16C
167
18A
174
13B
14D
13F
14A
14F
143
173
182
18E
142
13F
16C
16A
17D
186
171
17C
181
147
141
184
14F
182
14E
13F
15B
190
141
13F
13E
14D
18B
150
16A
193
169
16B
15B
165
156
160
15B
17A
181
166
15C
15B
182
177
144
18E
18B
151
173
13E
163
172
17D
176
15F
16E
178
14E
148

