44
24
06
1B
47
29
44
44
3A
F3
FE
24
3D
FE
0C
44
2A
1D
05
F5
38
F3
40
F6
12
3E
27
F8
17
32
16
28
38
20
2C
46
40
27
FF
35
F5
3A
43
2B
33
F8
42
27
03
10
02
11
24
1F
42
2C
F3
05
F7
02
07
FB
2B
3A
46
FA
F7
24
22
35
3E
29
34
39
FF
F9
3C
07
3A
06
F7
13
48
F9
F7
F6
05
43
08
22
4B
21
23
13
1D
0E
18
13
32
39
1E
14
13
3A
2F
FC
46
43
09
2B
F6
1B
2A
35
2E
17
26
30
06
00

