314
2F4
2D6
2EB
317
2F9
314
314
30A
2C3
2CE
2F4
30D
2CE
2DC
314
2FA
2ED
2D5
2C5
308
2C3
310
2C6
2E2
30E
2F7
2C8
2E7
302
2E6
2F8
308
2F0
2FC
316
310
2F7
2CF
305
2C5
30A
313
2FB
303
2C8
312
2F7
2D3
2E0
2D2
2E1
2F4
2EF
312
2FC
2C3
2D5
2C7
2D2
2D7
2CB
2FB
30A
316
2CA
2C7
2F4
2F2
305
30E
2F9
304
309
2CF
2C9
30C
2D7
30A
2D6
2C7
2E3
318
2C9
2C7
2C6
2D5
313
2D8
2F2
31B
2F1
2F3
2E3
2ED
2DE
2E8
2E3
302
309
2EE
2E4
2E3
30A
2FF
2CC
316
313
2D9
2FB
2C6
2EB
2FA
305
2FE
2E7
2F6
300
2D6
2D0

