92
D2
C4
9A
CA
9E
CF
D3
CB
CD
AC
9B
B8
B2
D7
C5
B1
99
E1
D1
D5
CB
B9
E1
AC
E4
E3
96
9A
A8
D4
DC
E7
9F
BD
E1
96
DA
D0
CF
B5
B1
B2
9F
A8
A3
DF
AA
CE
90
B3
D7
E4
AC
E5
E7
A1
D5
C4
AC
91
95
DB
D8
C1
A0
BC
E2
CE
95
B2
90
98
A0
D8
B3
A3
95
B2
9A
C2
91
AF
90

