130
170
162
138
168
13C
16D
171
169
16B
14A
139
156
150
175
163
14F
137
17F
16F
173
169
157
17F
14A
182
181
134
138
146
172
17A
185
13D
15B
17F
134
178
16E
16D
153
14F
150
13D
146
141
17D
148
16C
12E
151
175
182
14A
183
185
13F
173
162
14A
12F
133
179
176
15F
13E
15A
180
16C
133
150
12E
136
13E
176
151
141
133
150
138
160
12F
14D
12E

