150
190
182
158
188
15C
18D
191
189
18B
16A
159
176
170
195
183
16F
157
19F
18F
193
189
177
19F
16A
1A2
1A1
154
158
166
192
19A
1A5
15D
17B
19F
154
198
18E
18D
173
16F
170
15D
166
161
19D
168
18C
14E
171
195
1A2
16A
1A3
1A5
15F
193
182
16A
14F
153
199
196
17F
15E
17A
1A0
18C
153
170
14E
156
15E
196
171
161
153
170
158
180
14F
16D
14E

