0CD
10D
0FF
0D5
105
0D9
10A
10E
106
108
0E7
0D6
0F3
0ED
112
100
0EC
0D4
11C
10C
110
106
0F4
11C
0E7
11F
11E
0D1
0D5
0E3
10F
117
122
0DA
0F8
11C
0D1
115
10B
10A
0F0
0EC
0ED
0DA
0E3
0DE
11A
0E5
109
0CB
0EE
112
11F
0E7
120
122
0DC
110
0FF
0E7
0CC
0D0
116
113
0FC
0DB
0F7
11D
109
0D0
0ED
0CB
0D3
0DB
113
0EE
0DE
0D0
0ED
0D5
0FD
0CC
0EA
0CB

