10F
14F
141
117
147
11B
14C
150
148
14A
129
118
135
12F
154
142
12E
116
15E
14E
152
148
136
15E
129
161
160
113
117
125
151
159
164
11C
13A
15E
113
157
14D
14C
132
12E
12F
11C
125
120
15C
127
14B
10D
130
154
161
129
162
164
11E
152
141
129
10E
112
158
155
13E
11D
139
15F
14B
112
12F
10D
115
11D
155
130
120
112
12F
117
13F
10E
12C
10D

